const unsigned char model_data[] DATA_ALIGN_ATTRIBUTE = {
  0x1c, 0x00, 0x00, 0x00, 0x54, 0x46, 0x4c, 0x33, 0x00, 0x00, 0x12, 0x00,
  0x1c, 0x00, 0x04, 0x00, 0x08, 0x00, 0x0c, 0x00, 0x10, 0x00, 0x14, 0x00,
  0x00, 0x00, 0x18, 0x00, 0x12, 0x00, 0x00, 0x00, 0x03, 0x00, 0x00, 0x00,
  0x3c, 0x08, 0x00, 0x00, 0x10, 0x00, 0x00, 0x00, 0x1c, 0x00, 0x00, 0x00,
  0x2c, 0x00, 0x00, 0x00, 0x0c, 0x00, 0x00, 0x00, 0x01, 0x00, 0x00, 0x00,
  0xe4, 0x00, 0x00, 0x00, 0x01, 0x00, 0x00, 0x00, 0xac, 0x00, 0x00, 0x00,
  0x0f, 0x00, 0x00, 0x00, 0x54, 0x4f, 0x43, 0x4f, 0x20, 0x43, 0x6f, 0x6e,
  0x76, 0x65, 0x72, 0x74, 0x65, 0x64, 0x2e, 0x00, 0x0d, 0x00, 0x00, 0x00,
  0x80, 0x00, 0x00, 0x00, 0x78, 0x00, 0x00, 0x00, 0x6c, 0x00, 0x00, 0x00,
  0x64, 0x00, 0x00, 0x00, 0x5c, 0x00, 0x00, 0x00, 0x54, 0x00, 0x00, 0x00,
  0x4c, 0x00, 0x00, 0x00, 0x40, 0x00, 0x00, 0x00, 0x34, 0x00, 0x00, 0x00,
  0x28, 0x00, 0x00, 0x00, 0x1c, 0x00, 0x00, 0x00, 0x10, 0x00, 0x00, 0x00,
  0x04, 0x00, 0x00, 0x00, 0x0a, 0xf9, 0xff, 0xff, 0x4c, 0x00, 0x00, 0x00,
  0x12, 0xf9, 0xff, 0xff, 0x18, 0x01, 0x00, 0x00, 0x1a, 0xf9, 0xff, 0xff,
  0x80, 0x01, 0x00, 0x00, 0x22, 0xf9, 0xff, 0xff, 0x20, 0x02, 0x00, 0x00,
  0x2a, 0xf9, 0xff, 0xff, 0x78, 0x02, 0x00, 0x00, 0x32, 0xf9, 0xff, 0xff,
  0x00, 0x03, 0x00, 0x00, 0xf8, 0xf8, 0xff, 0xff, 0xfc, 0xf8, 0xff, 0xff,
  0x00, 0xf9, 0xff, 0xff, 0x04, 0xf9, 0xff, 0xff, 0x4a, 0xf9, 0xff, 0xff,
  0xd0, 0x04, 0x00, 0x00, 0x10, 0xf9, 0xff, 0xff, 0x14, 0xf9, 0xff, 0xff,
  0x05, 0x00, 0x00, 0x00, 0x31, 0x2e, 0x35, 0x2e, 0x30, 0x00, 0x00, 0x00,
  0xe4, 0xf9, 0xff, 0xff, 0x08, 0x00, 0x00, 0x00, 0x0c, 0x00, 0x00, 0x00,
  0x13, 0x00, 0x00, 0x00, 0x6d, 0x69, 0x6e, 0x5f, 0x72, 0x75, 0x6e, 0x74,
  0x69, 0x6d, 0x65, 0x5f, 0x76, 0x65, 0x72, 0x73, 0x69, 0x6f, 0x6e, 0x00,
  0x0c, 0x00, 0x14, 0x00, 0x04, 0x00, 0x08, 0x00, 0x0c, 0x00, 0x10, 0x00,
  0x0c, 0x00, 0x00, 0x00, 0x20, 0x00, 0x00, 0x00, 0x14, 0x00, 0x00, 0x00,
  0x08, 0x00, 0x00, 0x00, 0x00, 0x06, 0x00, 0x00, 0x01, 0x00, 0x00, 0x00,
  0x00, 0x00, 0x00, 0x00, 0x01, 0x00, 0x00, 0x00, 0x01, 0x00, 0x00, 0x00,
  0x0b, 0x00, 0x00, 0x00, 0x0c, 0x03, 0x00, 0x00, 0x90, 0x05, 0x00, 0x00,
  0x14, 0x02, 0x00, 0x00, 0x98, 0x01, 0x00, 0x00, 0xb4, 0x03, 0x00, 0x00,
  0xf0, 0x03, 0x00, 0x00, 0x2c, 0x01, 0x00, 0x00, 0x68, 0x03, 0x00, 0x00,
  0x20, 0x03, 0x00, 0x00, 0x60, 0x00, 0x00, 0x00, 0x04, 0x00, 0x00, 0x00,
  0xa6, 0xfa, 0xff, 0xff, 0x10, 0x00, 0x00, 0x00, 0x0b, 0x00, 0x00, 0x00,
  0x10, 0x00, 0x00, 0x00, 0x30, 0x00, 0x00, 0x00, 0x01, 0x00, 0x00, 0x00,
  0x04, 0x00, 0x00, 0x00, 0x1e, 0x00, 0x00, 0x00, 0x73, 0x65, 0x71, 0x75,
  0x65, 0x6e, 0x74, 0x69, 0x61, 0x6c, 0x2f, 0x64, 0x65, 0x6e, 0x73, 0x65,
  0x5f, 0x32, 0x2f, 0x4d, 0x61, 0x74, 0x4d, 0x75, 0x6c, 0x5f, 0x62, 0x69,
  0x61, 0x73, 0x00, 0x00, 0xe8, 0xf9, 0xff, 0xff, 0x10, 0x00, 0x00, 0x00,
  0x14, 0x2e, 0x9b, 0x3e, 0x72, 0x32, 0xb3, 0xbf, 0x72, 0x1a, 0x20, 0xc0,
  0x41, 0x79, 0x56, 0x40, 0xfe, 0xfa, 0xff, 0xff, 0x10, 0x00, 0x00, 0x00,
  0x0a, 0x00, 0x00, 0x00, 0x14, 0x00, 0x00, 0x00, 0x48, 0x00, 0x00, 0x00,
  0x02, 0x00, 0x00, 0x00, 0x04, 0x00, 0x00, 0x00, 0x06, 0x00, 0x00, 0x00,
  0x32, 0x00, 0x00, 0x00, 0x73, 0x65, 0x71, 0x75, 0x65, 0x6e, 0x74, 0x69,
  0x61, 0x6c, 0x2f, 0x64, 0x65, 0x6e, 0x73, 0x65, 0x5f, 0x32, 0x2f, 0x4d,
  0x61, 0x74, 0x4d, 0x75, 0x6c, 0x2f, 0x52, 0x65, 0x61, 0x64, 0x56, 0x61,
  0x72, 0x69, 0x61, 0x62, 0x6c, 0x65, 0x4f, 0x70, 0x2f, 0x74, 0x72, 0x61,
  0x6e, 0x73, 0x70, 0x6f, 0x73, 0x65, 0x00, 0x00, 0x58, 0xfa, 0xff, 0xff,
  0x60, 0x00, 0x00, 0x00, 0x10, 0x2a, 0xc0, 0xbf, 0x94, 0x57, 0x00, 0x3e,
  0x40, 0x61, 0x4d, 0xbc, 0x2f, 0x1b, 0xfc, 0x3f, 0xf2, 0xa4, 0xae, 0xbe,
  0x5b, 0xde, 0x65, 0xc0, 0x26, 0x52, 0x57, 0x3f, 0xb6, 0x11, 0x33, 0xbf,
  0xf0, 0x3b, 0x74, 0xbe, 0x35, 0xf1, 0xe3, 0x3f, 0x09, 0xe7, 0x38, 0xbf,
  0xd7, 0x71, 0x01, 0x3e, 0x1a, 0x4f, 0xcb, 0x3f, 0xb3, 0xb2, 0xff, 0xbe,
  0x40, 0xca, 0x48, 0x3c, 0x28, 0xfd, 0x6a, 0xbf, 0x10, 0x0b, 0xd8, 0xbd,
  0xa5, 0x0e, 0x58, 0x40, 0xf1, 0x0f, 0x32, 0xc0, 0xe0, 0x5d, 0xa2, 0x3e,
  0xb0, 0xc3, 0xdc, 0xbe, 0x1a, 0x71, 0x61, 0xc0, 0x8a, 0xf2, 0x20, 0xbf,
  0xd0, 0xf0, 0xd9, 0xbf, 0xbe, 0xfb, 0xff, 0xff, 0x10, 0x00, 0x00, 0x00,
  0x09, 0x00, 0x00, 0x00, 0x10, 0x00, 0x00, 0x00, 0x30, 0x00, 0x00, 0x00,
  0x01, 0x00, 0x00, 0x00, 0x06, 0x00, 0x00, 0x00, 0x1e, 0x00, 0x00, 0x00,
  0x73, 0x65, 0x71, 0x75, 0x65, 0x6e, 0x74, 0x69, 0x61, 0x6c, 0x2f, 0x64,
  0x65, 0x6e, 0x73, 0x65, 0x5f, 0x31, 0x2f, 0x4d, 0x61, 0x74, 0x4d, 0x75,
  0x6c, 0x5f, 0x62, 0x69, 0x61, 0x73, 0x00, 0x00, 0x00, 0xfb, 0xff, 0xff,
  0x18, 0x00, 0x00, 0x00, 0x1d, 0xbf, 0xda, 0xbd, 0x0e, 0x10, 0x01, 0xbd,
  0x60, 0x6a, 0xfa, 0xbc, 0x2e, 0x52, 0xac, 0x3d, 0x87, 0x0f, 0xfb, 0xbc,
  0x25, 0xb3, 0x55, 0xbe, 0x1e, 0xfc, 0xff, 0xff, 0x10, 0x00, 0x00, 0x00,
  0x08, 0x00, 0x00, 0x00, 0x10, 0x00, 0x00, 0x00, 0x30, 0x00, 0x00, 0x00,
  0x01, 0x00, 0x00, 0x00, 0x0c, 0x00, 0x00, 0x00, 0x1c, 0x00, 0x00, 0x00,
  0x73, 0x65, 0x71, 0x75, 0x65, 0x6e, 0x74, 0x69, 0x61, 0x6c, 0x2f, 0x64,
  0x65, 0x6e, 0x73, 0x65, 0x2f, 0x4d, 0x61, 0x74, 0x4d, 0x75, 0x6c, 0x5f,
  0x62, 0x69, 0x61, 0x73, 0x00, 0x00, 0x00, 0x00, 0x60, 0xfb, 0xff, 0xff,
  0x30, 0x00, 0x00, 0x00, 0x75, 0x3f, 0x20, 0xbd, 0xb6, 0x52, 0xa0, 0xbd,
  0x3c, 0x98, 0x83, 0xbc, 0x3e, 0xf4, 0x24, 0x91, 0x58, 0x65, 0xa7, 0xb8,
  0x2e, 0x8f, 0xd7, 0x3c, 0xde, 0x17, 0x22, 0x3b, 0xeb, 0xc6, 0x50, 0x3e,
  0x4c, 0x07, 0x3c, 0x3e, 0x70, 0x46, 0x85, 0xbb, 0x72, 0xdc, 0x81, 0x3c,
  0x6c, 0xff, 0x0f, 0xba, 0x96, 0xfc, 0xff, 0xff, 0x10, 0x00, 0x00, 0x00,
  0x07, 0x00, 0x00, 0x00, 0x14, 0x00, 0x00, 0x00, 0x48, 0x00, 0x00, 0x00,
  0x02, 0x00, 0x00, 0x00, 0x0c, 0x00, 0x00, 0x00, 0x03, 0x00, 0x00, 0x00,
  0x30, 0x00, 0x00, 0x00, 0x73, 0x65, 0x71, 0x75, 0x65, 0x6e, 0x74, 0x69,
  0x61, 0x6c, 0x2f, 0x64, 0x65, 0x6e, 0x73, 0x65, 0x2f, 0x4d, 0x61, 0x74,
  0x4d, 0x75, 0x6c, 0x2f, 0x52, 0x65, 0x61, 0x64, 0x56, 0x61, 0x72, 0x69,
  0x61, 0x62, 0x6c, 0x65, 0x4f, 0x70, 0x2f, 0x74, 0x72, 0x61, 0x6e, 0x73,
  0x70, 0x6f, 0x73, 0x65, 0x00, 0x00, 0x00, 0x00, 0xf0, 0xfb, 0xff, 0xff,
  0x90, 0x00, 0x00, 0x00, 0x42, 0xde, 0x06, 0x88, 0x55, 0x0c, 0x81, 0x89,
  0x1f, 0x43, 0x3f, 0x89, 0xeb, 0xb0, 0x8e, 0x3f, 0xda, 0xc8, 0x83, 0xbf,
  0x65, 0x0a, 0xf2, 0x3e, 0xef, 0xbd, 0x89, 0xbe, 0x4e, 0xcd, 0x21, 0xbe,
  0xea, 0xa6, 0x94, 0x3f, 0x88, 0x3c, 0x80, 0x08, 0x7d, 0x00, 0x56, 0x88,
  0x38, 0x0c, 0xd3, 0x09, 0x89, 0xa0, 0xb6, 0x09, 0x0d, 0x6e, 0xa6, 0x09,
  0x0c, 0x96, 0x1e, 0x89, 0xd2, 0xdf, 0x7d, 0x3f, 0x62, 0x26, 0xb3, 0xbf,
  0x13, 0x8f, 0xd4, 0x3e, 0xfd, 0xc1, 0x76, 0x3f, 0x7e, 0x60, 0xd7, 0xbe,
  0x3c, 0x16, 0x8e, 0x3e, 0xa5, 0x8b, 0xec, 0xbe, 0xf7, 0x18, 0xce, 0x3f,
  0x2a, 0x77, 0x2a, 0xbf, 0x7e, 0xc7, 0x00, 0xbe, 0xc3, 0x08, 0xbd, 0x3f,
  0x13, 0x60, 0x81, 0xbf, 0x54, 0x74, 0xda, 0x3e, 0xff, 0x0b, 0xec, 0xbf,
  0xae, 0x2f, 0xcf, 0x3f, 0x52, 0x5e, 0x6a, 0x3f, 0x38, 0xbb, 0xb9, 0xbf,
  0x44, 0x87, 0x22, 0x3f, 0x35, 0x28, 0x50, 0x3f, 0x27, 0x8b, 0xa1, 0xbf,
  0x29, 0xae, 0x16, 0x3f, 0x86, 0xfd, 0xff, 0xff, 0x10, 0x00, 0x00, 0x00,
  0x06, 0x00, 0x00, 0x00, 0x14, 0x00, 0x00, 0x00, 0x20, 0x00, 0x00, 0x00,
  0x02, 0x00, 0x00, 0x00, 0x01, 0x00, 0x00, 0x00, 0x04, 0x00, 0x00, 0x00,
  0x08, 0x00, 0x00, 0x00, 0x49, 0x64, 0x65, 0x6e, 0x74, 0x69, 0x74, 0x79,
  0x00, 0x00, 0x00, 0x00, 0xb8, 0xfc, 0xff, 0xff, 0xba, 0xfd, 0xff, 0xff,
  0x10, 0x00, 0x00, 0x00, 0x05, 0x00, 0x00, 0x00, 0x14, 0x00, 0x00, 0x00,
  0x30, 0x00, 0x00, 0x00, 0x02, 0x00, 0x00, 0x00, 0x01, 0x00, 0x00, 0x00,
  0x04, 0x00, 0x00, 0x00, 0x1a, 0x00, 0x00, 0x00, 0x73, 0x65, 0x71, 0x75,
  0x65, 0x6e, 0x74, 0x69, 0x61, 0x6c, 0x2f, 0x64, 0x65, 0x6e, 0x73, 0x65,
  0x5f, 0x32, 0x2f, 0x42, 0x69, 0x61, 0x73, 0x41, 0x64, 0x64, 0x00, 0x00,
  0xfc, 0xfc, 0xff, 0xff, 0xfe, 0xfd, 0xff, 0xff, 0x10, 0x00, 0x00, 0x00,
  0x04, 0x00, 0x00, 0x00, 0x14, 0x00, 0x00, 0x00, 0x2c, 0x00, 0x00, 0x00,
  0x02, 0x00, 0x00, 0x00, 0x01, 0x00, 0x00, 0x00, 0x06, 0x00, 0x00, 0x00,
  0x17, 0x00, 0x00, 0x00, 0x73, 0x65, 0x71, 0x75, 0x65, 0x6e, 0x74, 0x69,
  0x61, 0x6c, 0x2f, 0x64, 0x65, 0x6e, 0x73, 0x65, 0x5f, 0x31, 0x2f, 0x52,
  0x65, 0x6c, 0x75, 0x00, 0x3c, 0xfd, 0xff, 0xff, 0x3e, 0xfe, 0xff, 0xff,
  0x10, 0x00, 0x00, 0x00, 0x03, 0x00, 0x00, 0x00, 0x14, 0x00, 0x00, 0x00,
  0x2c, 0x00, 0x00, 0x00, 0x02, 0x00, 0x00, 0x00, 0x01, 0x00, 0x00, 0x00,
  0x0c, 0x00, 0x00, 0x00, 0x15, 0x00, 0x00, 0x00, 0x73, 0x65, 0x71, 0x75,
  0x65, 0x6e, 0x74, 0x69, 0x61, 0x6c, 0x2f, 0x64, 0x65, 0x6e, 0x73, 0x65,
  0x2f, 0x52, 0x65, 0x6c, 0x75, 0x00, 0x00, 0x00, 0x7c, 0xfd, 0xff, 0xff,
  0x7e, 0xfe, 0xff, 0xff, 0x10, 0x00, 0x00, 0x00, 0x02, 0x00, 0x00, 0x00,
  0x14, 0x00, 0x00, 0x00, 0x48, 0x00, 0x00, 0x00, 0x02, 0x00, 0x00, 0x00,
  0x06, 0x00, 0x00, 0x00, 0x0c, 0x00, 0x00, 0x00, 0x32, 0x00, 0x00, 0x00,
  0x73, 0x65, 0x71, 0x75, 0x65, 0x6e, 0x74, 0x69, 0x61, 0x6c, 0x2f, 0x64,
  0x65, 0x6e, 0x73, 0x65, 0x5f, 0x31, 0x2f, 0x4d, 0x61, 0x74, 0x4d, 0x75,
  0x6c, 0x2f, 0x52, 0x65, 0x61, 0x64, 0x56, 0x61, 0x72, 0x69, 0x61, 0x62,
  0x6c, 0x65, 0x4f, 0x70, 0x2f, 0x74, 0x72, 0x61, 0x6e, 0x73, 0x70, 0x6f,
  0x73, 0x65, 0x00, 0x00, 0xd8, 0xfd, 0xff, 0xff, 0x20, 0x01, 0x00, 0x00,
  0xb6, 0xd7, 0x9e, 0x08, 0xb5, 0x1c, 0x21, 0x3f, 0x94, 0xde, 0x9b, 0x3e,
  0x7c, 0x23, 0xa1, 0x89, 0xb4, 0xa9, 0x24, 0x88, 0x03, 0x45, 0xa8, 0x3f,
  0x6f, 0xfa, 0x1d, 0x3f, 0x27, 0x4e, 0x8e, 0xbf, 0xc3, 0x2f, 0x93, 0xbf,
  0xc6, 0xe2, 0xc0, 0x3f, 0xec, 0xd9, 0xa1, 0x3f, 0x72, 0xe3, 0x93, 0x3f,
  0x1b, 0x21, 0x56, 0x09, 0x44, 0x27, 0x36, 0xb6, 0xf0, 0xcf, 0x9f, 0x89,
  0xe6, 0x54, 0x96, 0x88, 0x6b, 0x05, 0xd1, 0x89, 0x6e, 0x58, 0xc7, 0xb3,
  0xa2, 0x8a, 0x21, 0xb8, 0x9d, 0x67, 0x8f, 0xaf, 0x2e, 0xe5, 0xf0, 0xb3,
  0x0b, 0xe8, 0xa4, 0x89, 0x17, 0xc9, 0xdb, 0xb2, 0xde, 0xb2, 0x28, 0xb1,
  0x08, 0xd6, 0xad, 0x09, 0xaf, 0x88, 0xf9, 0x08, 0x74, 0xec, 0xc4, 0x09,
  0x25, 0x7d, 0x9a, 0x88, 0xdd, 0x7e, 0x83, 0x08, 0x60, 0x01, 0xdc, 0x09,
  0x93, 0x6b, 0x0a, 0x09, 0x85, 0x7a, 0xef, 0x88, 0xfb, 0xb9, 0x9d, 0x09,
  0xd0, 0x4c, 0x92, 0x89, 0x32, 0xda, 0x79, 0x09, 0x34, 0xad, 0xd4, 0x09,
  0xb5, 0x03, 0xdc, 0x08, 0xab, 0x33, 0xad, 0x3f, 0xf2, 0x30, 0x5a, 0xbf,
  0x54, 0x41, 0xb5, 0x89, 0xbe, 0x8c, 0x2c, 0x89, 0x3f, 0x97, 0x13, 0x40,
  0xfb, 0x98, 0x11, 0x3f, 0x30, 0xca, 0x56, 0xbf, 0xb5, 0x63, 0x39, 0xbe,
  0xd9, 0xf3, 0xe3, 0xbf, 0x21, 0x42, 0xf5, 0x3f, 0x65, 0x14, 0xed, 0x3f,
  0x47, 0xd0, 0xbb, 0x88, 0x04, 0xa6, 0x1b, 0x09, 0x8b, 0x68, 0xfa, 0x08,
  0x83, 0xda, 0x09, 0x89, 0xcb, 0x3e, 0xe4, 0x09, 0xe8, 0x37, 0xa7, 0x88,
  0x14, 0x2a, 0xee, 0x09, 0x64, 0x55, 0x46, 0x07, 0xea, 0xce, 0xd9, 0x09,
  0x1e, 0x9d, 0x93, 0x09, 0xf0, 0xe9, 0x80, 0x89, 0xaa, 0x59, 0x02, 0x0b,
  0xf1, 0x26, 0x4e, 0x89, 0xc3, 0x26, 0x60, 0x3f, 0xa1, 0x13, 0xd7, 0x3f,
  0x81, 0x72, 0x25, 0x89, 0x67, 0xe3, 0x91, 0x89, 0xd4, 0x2c, 0xe1, 0x3f,
  0x62, 0x39, 0xb8, 0x3d, 0x2f, 0x8f, 0xdb, 0xbf, 0x19, 0xb0, 0xce, 0xbf,
  0xee, 0x8b, 0x58, 0x40, 0xd4, 0x64, 0xe4, 0x3f, 0x4c, 0xf1, 0xd2, 0x3f,
  0x00, 0x00, 0x0e, 0x00, 0x14, 0x00, 0x04, 0x00, 0x00, 0x00, 0x08, 0x00,
  0x0c, 0x00, 0x10, 0x00, 0x0e, 0x00, 0x00, 0x00, 0x10, 0x00, 0x00, 0x00,
  0x01, 0x00, 0x00, 0x00, 0x14, 0x00, 0x00, 0x00, 0x28, 0x00, 0x00, 0x00,
  0x02, 0x00, 0x00, 0x00, 0x01, 0x00, 0x00, 0x00, 0x03, 0x00, 0x00, 0x00,
  0x0b, 0x00, 0x00, 0x00, 0x64, 0x65, 0x6e, 0x73, 0x65, 0x5f, 0x69, 0x6e,
  0x70, 0x75, 0x74, 0x00, 0x08, 0x00, 0x0c, 0x00, 0x04, 0x00, 0x08, 0x00,
  0x08, 0x00, 0x00, 0x00, 0x10, 0x00, 0x00, 0x00, 0x04, 0x00, 0x00, 0x00,
  0x01, 0x00, 0x00, 0x00, 0x00, 0x00, 0x7f, 0x43, 0x01, 0x00, 0x00, 0x00,
  0x00, 0x00, 0x00, 0x00, 0x04, 0x00, 0x00, 0x00, 0xf0, 0x00, 0x00, 0x00,
  0x9c, 0x00, 0x00, 0x00, 0x5c, 0x00, 0x00, 0x00, 0x18, 0x00, 0x00, 0x00,
  0x14, 0x00, 0x1c, 0x00, 0x08, 0x00, 0x0c, 0x00, 0x10, 0x00, 0x07, 0x00,
  0x14, 0x00, 0x00, 0x00, 0x00, 0x00, 0x18, 0x00, 0x14, 0x00, 0x00, 0x00,
  0x00, 0x00, 0x00, 0x09, 0x01, 0x00, 0x00, 0x00, 0x10, 0x00, 0x00, 0x00,
  0x14, 0x00, 0x00, 0x00, 0x24, 0x00, 0x00, 0x00, 0x14, 0x00, 0x00, 0x00,
  0x01, 0x00, 0x00, 0x00, 0x08, 0x00, 0x00, 0x00, 0x01, 0x00, 0x00, 0x00,
  0x00, 0x00, 0x00, 0x00, 0x00, 0x00, 0x00, 0x00, 0x00, 0x00, 0x06, 0x00,
  0x08, 0x00, 0x04, 0x00, 0x06, 0x00, 0x00, 0x00, 0x00, 0x00, 0x80, 0x3f,
  0x88, 0xff, 0xff, 0xff, 0x00, 0x00, 0x00, 0x08, 0x10, 0x00, 0x00, 0x00,
  0x1c, 0x00, 0x00, 0x00, 0x28, 0x00, 0x00, 0x00, 0x1c, 0x00, 0x00, 0x00,
  0x03, 0x00, 0x00, 0x00, 0x07, 0x00, 0x00, 0x00, 0x09, 0x00, 0x00, 0x00,
  0x0a, 0x00, 0x00, 0x00, 0x01, 0x00, 0x00, 0x00, 0x08, 0x00, 0x00, 0x00,
  0x00, 0x00, 0x00, 0x00, 0x04, 0x00, 0x04, 0x00, 0x04, 0x00, 0x00, 0x00,
  0xc4, 0xff, 0xff, 0xff, 0x00, 0x00, 0x00, 0x08, 0x10, 0x00, 0x00, 0x00,
  0x1c, 0x00, 0x00, 0x00, 0x24, 0x00, 0x00, 0x00, 0x1c, 0x00, 0x00, 0x00,
  0x03, 0x00, 0x00, 0x00, 0x04, 0x00, 0x00, 0x00, 0x05, 0x00, 0x00, 0x00,
  0x06, 0x00, 0x00, 0x00, 0x01, 0x00, 0x00, 0x00, 0x07, 0x00, 0x00, 0x00,
  0x00, 0x00, 0x00, 0x00, 0x82, 0xff, 0xff, 0xff, 0x00, 0x00, 0x00, 0x01,
  0x14, 0x00, 0x18, 0x00, 0x00, 0x00, 0x08, 0x00, 0x0c, 0x00, 0x07, 0x00,
  0x10, 0x00, 0x00, 0x00, 0x00, 0x00, 0x14, 0x00, 0x14, 0x00, 0x00, 0x00,
  0x00, 0x00, 0x00, 0x08, 0x10, 0x00, 0x00, 0x00, 0x1c, 0x00, 0x00, 0x00,
  0x24, 0x00, 0x00, 0x00, 0x1c, 0x00, 0x00, 0x00, 0x03, 0x00, 0x00, 0x00,
  0x01, 0x00, 0x00, 0x00, 0x02, 0x00, 0x00, 0x00, 0x03, 0x00, 0x00, 0x00,
  0x01, 0x00, 0x00, 0x00, 0x04, 0x00, 0x00, 0x00, 0x00, 0x00, 0x00, 0x00,
  0xd2, 0xff, 0xff, 0xff, 0x00, 0x00, 0x00, 0x01, 0x02, 0x00, 0x00, 0x00,
  0x10, 0x00, 0x00, 0x00, 0x04, 0x00, 0x00, 0x00, 0xe6, 0xff, 0xff, 0xff,
  0x00, 0x00, 0x00, 0x19, 0xfa, 0xff, 0xff, 0xff, 0x00, 0x09, 0x06, 0x00,
  0x06, 0x00, 0x05, 0x00, 0x06, 0x00, 0x00, 0x00, 0x00, 0x09, 0x06, 0x00,
  0x08, 0x00, 0x07, 0x00, 0x06, 0x00, 0x00, 0x00, 0x00, 0x00, 0x00, 0x09
};
const unsigned int model_data_len = 2196;
