const unsigned char model_data[] DATA_ALIGN_ATTRIBUTE = {
  0x1c, 0x00, 0x00, 0x00, 0x54, 0x46, 0x4c, 0x33, 0x00, 0x00, 0x12, 0x00,
  0x1c, 0x00, 0x04, 0x00, 0x08, 0x00, 0x0c, 0x00, 0x10, 0x00, 0x14, 0x00,
  0x00, 0x00, 0x18, 0x00, 0x12, 0x00, 0x00, 0x00, 0x03, 0x00, 0x00, 0x00,
  0x68, 0x08, 0x00, 0x00, 0x10, 0x00, 0x00, 0x00, 0x1c, 0x00, 0x00, 0x00,
  0x2c, 0x00, 0x00, 0x00, 0x0c, 0x00, 0x00, 0x00, 0x01, 0x00, 0x00, 0x00,
  0xe4, 0x00, 0x00, 0x00, 0x01, 0x00, 0x00, 0x00, 0xac, 0x00, 0x00, 0x00,
  0x0f, 0x00, 0x00, 0x00, 0x54, 0x4f, 0x43, 0x4f, 0x20, 0x43, 0x6f, 0x6e,
  0x76, 0x65, 0x72, 0x74, 0x65, 0x64, 0x2e, 0x00, 0x0d, 0x00, 0x00, 0x00,
  0x80, 0x00, 0x00, 0x00, 0x78, 0x00, 0x00, 0x00, 0x70, 0x00, 0x00, 0x00,
  0x68, 0x00, 0x00, 0x00, 0x60, 0x00, 0x00, 0x00, 0x58, 0x00, 0x00, 0x00,
  0x4c, 0x00, 0x00, 0x00, 0x40, 0x00, 0x00, 0x00, 0x34, 0x00, 0x00, 0x00,
  0x28, 0x00, 0x00, 0x00, 0x1c, 0x00, 0x00, 0x00, 0x10, 0x00, 0x00, 0x00,
  0x04, 0x00, 0x00, 0x00, 0xde, 0xf8, 0xff, 0xff, 0x4c, 0x00, 0x00, 0x00,
  0xe6, 0xf8, 0xff, 0xff, 0x1c, 0x01, 0x00, 0x00, 0xee, 0xf8, 0xff, 0xff,
  0x88, 0x01, 0x00, 0x00, 0xf6, 0xf8, 0xff, 0xff, 0x2c, 0x02, 0x00, 0x00,
  0xfe, 0xf8, 0xff, 0xff, 0xa0, 0x02, 0x00, 0x00, 0x06, 0xf9, 0xff, 0xff,
  0x04, 0x04, 0x00, 0x00, 0x0e, 0xf9, 0xff, 0xff, 0x90, 0x04, 0x00, 0x00,
  0xd4, 0xf8, 0xff, 0xff, 0xd8, 0xf8, 0xff, 0xff, 0xdc, 0xf8, 0xff, 0xff,
  0xe0, 0xf8, 0xff, 0xff, 0xe4, 0xf8, 0xff, 0xff, 0xe8, 0xf8, 0xff, 0xff,
  0x05, 0x00, 0x00, 0x00, 0x31, 0x2e, 0x35, 0x2e, 0x30, 0x00, 0x00, 0x00,
  0xb8, 0xf9, 0xff, 0xff, 0x08, 0x00, 0x00, 0x00, 0x0c, 0x00, 0x00, 0x00,
  0x13, 0x00, 0x00, 0x00, 0x6d, 0x69, 0x6e, 0x5f, 0x72, 0x75, 0x6e, 0x74,
  0x69, 0x6d, 0x65, 0x5f, 0x76, 0x65, 0x72, 0x73, 0x69, 0x6f, 0x6e, 0x00,
  0x0c, 0x00, 0x14, 0x00, 0x04, 0x00, 0x08, 0x00, 0x0c, 0x00, 0x10, 0x00,
  0x0c, 0x00, 0x00, 0x00, 0x20, 0x00, 0x00, 0x00, 0x14, 0x00, 0x00, 0x00,
  0x08, 0x00, 0x00, 0x00, 0x2c, 0x06, 0x00, 0x00, 0x01, 0x00, 0x00, 0x00,
  0x00, 0x00, 0x00, 0x00, 0x01, 0x00, 0x00, 0x00, 0x01, 0x00, 0x00, 0x00,
  0x0b, 0x00, 0x00, 0x00, 0xa4, 0x04, 0x00, 0x00, 0xb8, 0x05, 0x00, 0x00,
  0xa8, 0x03, 0x00, 0x00, 0x28, 0x03, 0x00, 0x00, 0x0c, 0x05, 0x00, 0x00,
  0x9c, 0x01, 0x00, 0x00, 0x34, 0x01, 0x00, 0x00, 0xbc, 0x04, 0x00, 0x00,
  0x40, 0x05, 0x00, 0x00, 0x64, 0x00, 0x00, 0x00, 0x04, 0x00, 0x00, 0x00,
  0x7e, 0xfa, 0xff, 0xff, 0x10, 0x00, 0x00, 0x00, 0x0b, 0x00, 0x00, 0x00,
  0x10, 0x00, 0x00, 0x00, 0x34, 0x00, 0x00, 0x00, 0x01, 0x00, 0x00, 0x00,
  0x04, 0x00, 0x00, 0x00, 0x20, 0x00, 0x00, 0x00, 0x73, 0x65, 0x71, 0x75,
  0x65, 0x6e, 0x74, 0x69, 0x61, 0x6c, 0x5f, 0x31, 0x2f, 0x64, 0x65, 0x6e,
  0x73, 0x65, 0x5f, 0x35, 0x2f, 0x4d, 0x61, 0x74, 0x4d, 0x75, 0x6c, 0x5f,
  0x62, 0x69, 0x61, 0x73, 0x00, 0x00, 0x00, 0x00, 0xc0, 0xf9, 0xff, 0xff,
  0x10, 0x00, 0x00, 0x00, 0xb7, 0x68, 0x0d, 0x3f, 0x82, 0xcf, 0x50, 0xbf,
  0x58, 0x2b, 0x0d, 0xc0, 0xf3, 0x85, 0x1a, 0x40, 0xda, 0xfa, 0xff, 0xff,
  0x10, 0x00, 0x00, 0x00, 0x0a, 0x00, 0x00, 0x00, 0x14, 0x00, 0x00, 0x00,
  0x4c, 0x00, 0x00, 0x00, 0x02, 0x00, 0x00, 0x00, 0x04, 0x00, 0x00, 0x00,
  0x06, 0x00, 0x00, 0x00, 0x34, 0x00, 0x00, 0x00, 0x73, 0x65, 0x71, 0x75,
  0x65, 0x6e, 0x74, 0x69, 0x61, 0x6c, 0x5f, 0x31, 0x2f, 0x64, 0x65, 0x6e,
  0x73, 0x65, 0x5f, 0x35, 0x2f, 0x4d, 0x61, 0x74, 0x4d, 0x75, 0x6c, 0x2f,
  0x52, 0x65, 0x61, 0x64, 0x56, 0x61, 0x72, 0x69, 0x61, 0x62, 0x6c, 0x65,
  0x4f, 0x70, 0x2f, 0x74, 0x72, 0x61, 0x6e, 0x73, 0x70, 0x6f, 0x73, 0x65,
  0x00, 0x00, 0x00, 0x00, 0x34, 0xfa, 0xff, 0xff, 0x60, 0x00, 0x00, 0x00,
  0x76, 0xdc, 0x10, 0xbf, 0x2a, 0xad, 0xfb, 0x3d, 0x40, 0x61, 0x4d, 0xbc,
  0x94, 0x2d, 0xc6, 0x3f, 0xf2, 0xa4, 0xae, 0xbe, 0x09, 0xec, 0x50, 0xc0,
  0xd9, 0x44, 0x10, 0x3f, 0xc1, 0x1f, 0x48, 0xbf, 0xf0, 0x3b, 0x74, 0xbe,
  0x3c, 0xb6, 0xcc, 0x3f, 0x09, 0xe7, 0x38, 0xbf, 0x94, 0xad, 0xb2, 0x3e,
  0x32, 0x31, 0xb8, 0x3f, 0x7a, 0xca, 0xd8, 0xbf, 0x40, 0xca, 0x48, 0x3c,
  0xa9, 0xb0, 0x14, 0xbf, 0x27, 0x0b, 0xd8, 0xbd, 0x48, 0x57, 0x44, 0x40,
  0x84, 0x6f, 0x7f, 0xc0, 0x0d, 0xef, 0xa8, 0x3f, 0xb0, 0xc3, 0xdc, 0xbe,
  0x03, 0x0d, 0x2b, 0xc0, 0x89, 0xf2, 0x20, 0xbf, 0x0c, 0x40, 0xfa, 0xbf,
  0x9e, 0xfb, 0xff, 0xff, 0x10, 0x00, 0x00, 0x00, 0x09, 0x00, 0x00, 0x00,
  0x10, 0x00, 0x00, 0x00, 0x34, 0x00, 0x00, 0x00, 0x01, 0x00, 0x00, 0x00,
  0x06, 0x00, 0x00, 0x00, 0x20, 0x00, 0x00, 0x00, 0x73, 0x65, 0x71, 0x75,
  0x65, 0x6e, 0x74, 0x69, 0x61, 0x6c, 0x5f, 0x31, 0x2f, 0x64, 0x65, 0x6e,
  0x73, 0x65, 0x5f, 0x34, 0x2f, 0x4d, 0x61, 0x74, 0x4d, 0x75, 0x6c, 0x5f,
  0x62, 0x69, 0x61, 0x73, 0x00, 0x00, 0x00, 0x00, 0xe0, 0xfa, 0xff, 0xff,
  0x18, 0x00, 0x00, 0x00, 0x4a, 0x58, 0x60, 0xbc, 0x88, 0xe8, 0x6b, 0x3f,
  0xb6, 0x6b, 0xfa, 0xbc, 0xf4, 0x6d, 0xca, 0x3d, 0x34, 0x3e, 0xf3, 0xbc,
  0x05, 0x5f, 0x39, 0xbe, 0x02, 0xfc, 0xff, 0xff, 0x10, 0x00, 0x00, 0x00,
  0x08, 0x00, 0x00, 0x00, 0x14, 0x00, 0x00, 0x00, 0x4c, 0x00, 0x00, 0x00,
  0x02, 0x00, 0x00, 0x00, 0x06, 0x00, 0x00, 0x00, 0x0c, 0x00, 0x00, 0x00,
  0x34, 0x00, 0x00, 0x00, 0x73, 0x65, 0x71, 0x75, 0x65, 0x6e, 0x74, 0x69,
  0x61, 0x6c, 0x5f, 0x31, 0x2f, 0x64, 0x65, 0x6e, 0x73, 0x65, 0x5f, 0x34,
  0x2f, 0x4d, 0x61, 0x74, 0x4d, 0x75, 0x6c, 0x2f, 0x52, 0x65, 0x61, 0x64,
  0x56, 0x61, 0x72, 0x69, 0x61, 0x62, 0x6c, 0x65, 0x4f, 0x70, 0x2f, 0x74,
  0x72, 0x61, 0x6e, 0x73, 0x70, 0x6f, 0x73, 0x65, 0x00, 0x00, 0x00, 0x00,
  0x5c, 0xfb, 0xff, 0xff, 0x20, 0x01, 0x00, 0x00, 0x20, 0x05, 0xc3, 0x89,
  0x85, 0xce, 0x2b, 0x3f, 0x2b, 0xda, 0xb2, 0x3e, 0x94, 0x0a, 0xb7, 0x89,
  0xde, 0x56, 0xa4, 0x09, 0x1c, 0xaf, 0xc7, 0x3f, 0xa4, 0xe8, 0x2d, 0x3f,
  0x9b, 0xf9, 0x7a, 0xbf, 0xd5, 0x7d, 0x82, 0xbf, 0xbe, 0x65, 0xcf, 0x3f,
  0x05, 0x7c, 0xbd, 0x3f, 0xc1, 0x3e, 0xac, 0x3f, 0x1b, 0x21, 0x56, 0x09,
  0xa3, 0x47, 0xa6, 0x3d, 0xb4, 0xa0, 0xe4, 0x3e, 0x14, 0x9f, 0x2e, 0x09,
  0x6b, 0x05, 0xd1, 0x89, 0xed, 0xcc, 0x5c, 0xbe, 0x12, 0xc1, 0x2a, 0x3f,
  0xcd, 0x8f, 0xa0, 0x3f, 0x81, 0xc8, 0x94, 0x3f, 0x76, 0x24, 0x84, 0xbf,
  0xdd, 0xc6, 0x85, 0xbe, 0xaf, 0x7d, 0x85, 0xbe, 0x08, 0xd6, 0xad, 0x09,
  0x64, 0x02, 0x83, 0x88, 0xb8, 0x94, 0xc2, 0x09, 0x25, 0x7d, 0x9a, 0x88,
  0xdd, 0x7e, 0x83, 0x08, 0x60, 0x01, 0xdc, 0x09, 0xb1, 0xd1, 0x29, 0x09,
  0x37, 0xb1, 0x02, 0x89, 0x9c, 0x95, 0xc5, 0x87, 0xd0, 0x4c, 0x92, 0x89,
  0x32, 0xda, 0x79, 0x09, 0x34, 0xad, 0xd4, 0x09, 0x3e, 0xce, 0xd7, 0x08,
  0x46, 0xaf, 0x89, 0x3f, 0x47, 0x69, 0x92, 0xbf, 0x3c, 0xe5, 0x05, 0x89,
  0xc9, 0xd2, 0x79, 0x09, 0x35, 0xbc, 0xfb, 0x3f, 0x70, 0x26, 0xc4, 0x3e,
  0x17, 0x69, 0x22, 0xbf, 0xbd, 0xed, 0xa5, 0x3d, 0x73, 0x8c, 0xcd, 0xbf,
  0xc9, 0x54, 0xcb, 0x3f, 0xdf, 0xd3, 0xb0, 0x3f, 0x47, 0xd0, 0xbb, 0x88,
  0x88, 0x36, 0xc1, 0x89, 0x73, 0x69, 0x09, 0x09, 0x83, 0xda, 0x09, 0x89,
  0x5e, 0x0c, 0x9c, 0x09, 0xa0, 0x41, 0xe4, 0x87, 0x77, 0x5b, 0x86, 0x89,
  0xcd, 0x3c, 0x6a, 0x89, 0x97, 0x23, 0x5a, 0x89, 0x49, 0x79, 0x53, 0x09,
  0xa5, 0xe6, 0xb6, 0x09, 0x55, 0xaf, 0x9b, 0x89, 0x47, 0xf3, 0xc4, 0x09,
  0x8f, 0x0c, 0x62, 0x3f, 0x42, 0x33, 0x6f, 0x3f, 0x03, 0x96, 0x80, 0x87,
  0x27, 0x0e, 0xd4, 0x89, 0xd4, 0x5c, 0xf3, 0x3f, 0xc7, 0x64, 0x01, 0x3e,
  0x3e, 0x86, 0xc9, 0xbf, 0x15, 0xba, 0x9b, 0xbf, 0x13, 0x08, 0x5a, 0x40,
  0x92, 0x01, 0xe3, 0x3f, 0xe1, 0xa2, 0xd3, 0x3f, 0x86, 0xfd, 0xff, 0xff,
  0x10, 0x00, 0x00, 0x00, 0x07, 0x00, 0x00, 0x00, 0x10, 0x00, 0x00, 0x00,
  0x34, 0x00, 0x00, 0x00, 0x01, 0x00, 0x00, 0x00, 0x0c, 0x00, 0x00, 0x00,
  0x20, 0x00, 0x00, 0x00, 0x73, 0x65, 0x71, 0x75, 0x65, 0x6e, 0x74, 0x69,
  0x61, 0x6c, 0x5f, 0x31, 0x2f, 0x64, 0x65, 0x6e, 0x73, 0x65, 0x5f, 0x33,
  0x2f, 0x4d, 0x61, 0x74, 0x4d, 0x75, 0x6c, 0x5f, 0x62, 0x69, 0x61, 0x73,
  0x00, 0x00, 0x00, 0x00, 0xc8, 0xfc, 0xff, 0xff, 0x30, 0x00, 0x00, 0x00,
  0x93, 0x16, 0x46, 0xbd, 0xdb, 0xe7, 0x11, 0xbd, 0x6f, 0xbd, 0x97, 0xbc,
  0xea, 0xc2, 0xa7, 0x8e, 0xe1, 0x9f, 0xa5, 0xba, 0x83, 0xbf, 0x89, 0x3d,
  0xb2, 0x12, 0x30, 0x3e, 0xd5, 0x42, 0x5a, 0x3e, 0x67, 0x5c, 0x65, 0x3e,
  0xad, 0x9c, 0x07, 0xbd, 0x06, 0xe8, 0x66, 0x3d, 0x7c, 0xc6, 0x18, 0x3d,
  0x02, 0xfe, 0xff, 0xff, 0x10, 0x00, 0x00, 0x00, 0x06, 0x00, 0x00, 0x00,
  0x14, 0x00, 0x00, 0x00, 0x4c, 0x00, 0x00, 0x00, 0x02, 0x00, 0x00, 0x00,
  0x0c, 0x00, 0x00, 0x00, 0x03, 0x00, 0x00, 0x00, 0x34, 0x00, 0x00, 0x00,
  0x73, 0x65, 0x71, 0x75, 0x65, 0x6e, 0x74, 0x69, 0x61, 0x6c, 0x5f, 0x31,
  0x2f, 0x64, 0x65, 0x6e, 0x73, 0x65, 0x5f, 0x33, 0x2f, 0x4d, 0x61, 0x74,
  0x4d, 0x75, 0x6c, 0x2f, 0x52, 0x65, 0x61, 0x64, 0x56, 0x61, 0x72, 0x69,
  0x61, 0x62, 0x6c, 0x65, 0x4f, 0x70, 0x2f, 0x74, 0x72, 0x61, 0x6e, 0x73,
  0x70, 0x6f, 0x73, 0x65, 0x00, 0x00, 0x00, 0x00, 0x5c, 0xfd, 0xff, 0xff,
  0x90, 0x00, 0x00, 0x00, 0x76, 0xf0, 0x7e, 0x89, 0x9c, 0x6d, 0x6f, 0x89,
  0x13, 0x7f, 0xae, 0x89, 0xeb, 0xeb, 0x82, 0x3f, 0x82, 0x20, 0x5e, 0xbf,
  0x64, 0xcf, 0xe4, 0x3e, 0x98, 0x28, 0xb4, 0xbe, 0x55, 0xd0, 0x8c, 0x3e,
  0x2b, 0xaf, 0x63, 0x3f, 0x00, 0xed, 0x26, 0x87, 0x04, 0x3a, 0x57, 0x88,
  0x44, 0xd4, 0xe4, 0x89, 0x4d, 0xa2, 0x97, 0x89, 0x17, 0x2c, 0x0d, 0x09,
  0xcf, 0x74, 0xe5, 0x89, 0xff, 0xdb, 0x65, 0x3f, 0x90, 0x63, 0x9e, 0xbf,
  0x89, 0x01, 0xd9, 0x3e, 0x04, 0x52, 0x79, 0x3f, 0x9d, 0x70, 0xfb, 0xbd,
  0xdb, 0x30, 0xf6, 0x3e, 0xfb, 0xdf, 0xcc, 0xbe, 0x42, 0x21, 0xc2, 0x3f,
  0xcd, 0x11, 0x0a, 0xbf, 0x79, 0x5d, 0x79, 0x3b, 0x25, 0x90, 0xab, 0x3f,
  0x4e, 0x20, 0x66, 0xbf, 0x42, 0xe3, 0xd2, 0x3e, 0xb3, 0x33, 0xd3, 0xbf,
  0xb5, 0xbf, 0xc4, 0x3f, 0x87, 0x28, 0x56, 0x3f, 0x9e, 0xe4, 0x9e, 0xbf,
  0x35, 0x9b, 0x0e, 0x3f, 0x85, 0xac, 0x2e, 0x3f, 0x02, 0x33, 0x86, 0xbf,
  0x9c, 0x1a, 0x14, 0x3f, 0xf6, 0xfe, 0xff, 0xff, 0x10, 0x00, 0x00, 0x00,
  0x05, 0x00, 0x00, 0x00, 0x14, 0x00, 0x00, 0x00, 0x20, 0x00, 0x00, 0x00,
  0x02, 0x00, 0x00, 0x00, 0x01, 0x00, 0x00, 0x00, 0x04, 0x00, 0x00, 0x00,
  0x08, 0x00, 0x00, 0x00, 0x49, 0x64, 0x65, 0x6e, 0x74, 0x69, 0x74, 0x79,
  0x00, 0x00, 0x00, 0x00, 0x24, 0xfe, 0xff, 0xff, 0x2a, 0xff, 0xff, 0xff,
  0x10, 0x00, 0x00, 0x00, 0x04, 0x00, 0x00, 0x00, 0x14, 0x00, 0x00, 0x00,
  0x30, 0x00, 0x00, 0x00, 0x02, 0x00, 0x00, 0x00, 0x01, 0x00, 0x00, 0x00,
  0x06, 0x00, 0x00, 0x00, 0x19, 0x00, 0x00, 0x00, 0x73, 0x65, 0x71, 0x75,
  0x65, 0x6e, 0x74, 0x69, 0x61, 0x6c, 0x5f, 0x31, 0x2f, 0x64, 0x65, 0x6e,
  0x73, 0x65, 0x5f, 0x34, 0x2f, 0x52, 0x65, 0x6c, 0x75, 0x00, 0x00, 0x00,
  0x68, 0xfe, 0xff, 0xff, 0x6e, 0xff, 0xff, 0xff, 0x10, 0x00, 0x00, 0x00,
  0x03, 0x00, 0x00, 0x00, 0x14, 0x00, 0x00, 0x00, 0x30, 0x00, 0x00, 0x00,
  0x02, 0x00, 0x00, 0x00, 0x01, 0x00, 0x00, 0x00, 0x0c, 0x00, 0x00, 0x00,
  0x19, 0x00, 0x00, 0x00, 0x73, 0x65, 0x71, 0x75, 0x65, 0x6e, 0x74, 0x69,
  0x61, 0x6c, 0x5f, 0x31, 0x2f, 0x64, 0x65, 0x6e, 0x73, 0x65, 0x5f, 0x33,
  0x2f, 0x52, 0x65, 0x6c, 0x75, 0x00, 0x00, 0x00, 0xac, 0xfe, 0xff, 0xff,
  0xb2, 0xff, 0xff, 0xff, 0x10, 0x00, 0x00, 0x00, 0x02, 0x00, 0x00, 0x00,
  0x14, 0x00, 0x00, 0x00, 0x38, 0x00, 0x00, 0x00, 0x02, 0x00, 0x00, 0x00,
  0x01, 0x00, 0x00, 0x00, 0x04, 0x00, 0x00, 0x00, 0x1c, 0x00, 0x00, 0x00,
  0x73, 0x65, 0x71, 0x75, 0x65, 0x6e, 0x74, 0x69, 0x61, 0x6c, 0x5f, 0x31,
  0x2f, 0x64, 0x65, 0x6e, 0x73, 0x65, 0x5f, 0x35, 0x2f, 0x42, 0x69, 0x61,
  0x73, 0x41, 0x64, 0x64, 0x00, 0x00, 0x00, 0x00, 0x04, 0x00, 0x06, 0x00,
  0x04, 0x00, 0x00, 0x00, 0x00, 0x00, 0x0e, 0x00, 0x14, 0x00, 0x04, 0x00,
  0x00, 0x00, 0x08, 0x00, 0x0c, 0x00, 0x10, 0x00, 0x0e, 0x00, 0x00, 0x00,
  0x10, 0x00, 0x00, 0x00, 0x01, 0x00, 0x00, 0x00, 0x14, 0x00, 0x00, 0x00,
  0x2c, 0x00, 0x00, 0x00, 0x02, 0x00, 0x00, 0x00, 0x01, 0x00, 0x00, 0x00,
  0x03, 0x00, 0x00, 0x00, 0x0d, 0x00, 0x00, 0x00, 0x64, 0x65, 0x6e, 0x73,
  0x65, 0x5f, 0x33, 0x5f, 0x69, 0x6e, 0x70, 0x75, 0x74, 0x00, 0x00, 0x00,
  0x08, 0x00, 0x0c, 0x00, 0x04, 0x00, 0x08, 0x00, 0x08, 0x00, 0x00, 0x00,
  0x10, 0x00, 0x00, 0x00, 0x04, 0x00, 0x00, 0x00, 0x01, 0x00, 0x00, 0x00,
  0x00, 0x00, 0x7f, 0x43, 0x01, 0x00, 0x00, 0x00, 0x00, 0x00, 0x00, 0x00,
  0x04, 0x00, 0x00, 0x00, 0xf0, 0x00, 0x00, 0x00, 0x9c, 0x00, 0x00, 0x00,
  0x5c, 0x00, 0x00, 0x00, 0x18, 0x00, 0x00, 0x00, 0x14, 0x00, 0x1c, 0x00,
  0x08, 0x00, 0x0c, 0x00, 0x10, 0x00, 0x07, 0x00, 0x14, 0x00, 0x00, 0x00,
  0x00, 0x00, 0x18, 0x00, 0x14, 0x00, 0x00, 0x00, 0x00, 0x00, 0x00, 0x09,
  0x01, 0x00, 0x00, 0x00, 0x10, 0x00, 0x00, 0x00, 0x14, 0x00, 0x00, 0x00,
  0x24, 0x00, 0x00, 0x00, 0x14, 0x00, 0x00, 0x00, 0x01, 0x00, 0x00, 0x00,
  0x08, 0x00, 0x00, 0x00, 0x01, 0x00, 0x00, 0x00, 0x00, 0x00, 0x00, 0x00,
  0x00, 0x00, 0x00, 0x00, 0x00, 0x00, 0x06, 0x00, 0x08, 0x00, 0x04, 0x00,
  0x06, 0x00, 0x00, 0x00, 0x00, 0x00, 0x80, 0x3f, 0x88, 0xff, 0xff, 0xff,
  0x00, 0x00, 0x00, 0x08, 0x10, 0x00, 0x00, 0x00, 0x1c, 0x00, 0x00, 0x00,
  0x28, 0x00, 0x00, 0x00, 0x1c, 0x00, 0x00, 0x00, 0x03, 0x00, 0x00, 0x00,
  0x07, 0x00, 0x00, 0x00, 0x09, 0x00, 0x00, 0x00, 0x0a, 0x00, 0x00, 0x00,
  0x01, 0x00, 0x00, 0x00, 0x08, 0x00, 0x00, 0x00, 0x00, 0x00, 0x00, 0x00,
  0x04, 0x00, 0x04, 0x00, 0x04, 0x00, 0x00, 0x00, 0xc4, 0xff, 0xff, 0xff,
  0x00, 0x00, 0x00, 0x08, 0x10, 0x00, 0x00, 0x00, 0x1c, 0x00, 0x00, 0x00,
  0x24, 0x00, 0x00, 0x00, 0x1c, 0x00, 0x00, 0x00, 0x03, 0x00, 0x00, 0x00,
  0x04, 0x00, 0x00, 0x00, 0x05, 0x00, 0x00, 0x00, 0x06, 0x00, 0x00, 0x00,
  0x01, 0x00, 0x00, 0x00, 0x07, 0x00, 0x00, 0x00, 0x00, 0x00, 0x00, 0x00,
  0x82, 0xff, 0xff, 0xff, 0x00, 0x00, 0x00, 0x01, 0x14, 0x00, 0x18, 0x00,
  0x00, 0x00, 0x08, 0x00, 0x0c, 0x00, 0x07, 0x00, 0x10, 0x00, 0x00, 0x00,
  0x00, 0x00, 0x14, 0x00, 0x14, 0x00, 0x00, 0x00, 0x00, 0x00, 0x00, 0x08,
  0x10, 0x00, 0x00, 0x00, 0x1c, 0x00, 0x00, 0x00, 0x24, 0x00, 0x00, 0x00,
  0x1c, 0x00, 0x00, 0x00, 0x03, 0x00, 0x00, 0x00, 0x01, 0x00, 0x00, 0x00,
  0x02, 0x00, 0x00, 0x00, 0x03, 0x00, 0x00, 0x00, 0x01, 0x00, 0x00, 0x00,
  0x04, 0x00, 0x00, 0x00, 0x00, 0x00, 0x00, 0x00, 0xd2, 0xff, 0xff, 0xff,
  0x00, 0x00, 0x00, 0x01, 0x02, 0x00, 0x00, 0x00, 0x10, 0x00, 0x00, 0x00,
  0x04, 0x00, 0x00, 0x00, 0xe6, 0xff, 0xff, 0xff, 0x00, 0x00, 0x00, 0x19,
  0xfa, 0xff, 0xff, 0xff, 0x00, 0x09, 0x06, 0x00, 0x06, 0x00, 0x05, 0x00,
  0x06, 0x00, 0x00, 0x00, 0x00, 0x09, 0x06, 0x00, 0x08, 0x00, 0x07, 0x00,
  0x06, 0x00, 0x00, 0x00, 0x00, 0x00, 0x00, 0x09
};
const unsigned int model_data_len = 2240;
